TRT-8501-EntropyCalibration2
input_data_0: 3c683ca3
491: 3e52b964
397: 3e5dfc64
494: 3d00140e
400: 3ccadb8f
497: 3e27e346
403: 3daee6d3
500: 3e176273
406: 3d68e0d2
503: 3d618962
409: 3d620c2d
410: 3d57127d
506: 3dd42cce
413: 3d5dd9fe
509: 3d9fe683
416: 3d7f008e
512: 3dc5f584
419: 3dcf1f3e
output_data_0: 3dae8eeb
515: 3daaaf7e
423: 3d817d79
518: 3da31ef4
426: 3d67ffcc
521: 3dbd9072
429: 3d87d828
524: 3d681f4c
432: 3db4fd25
433: 3d90ea5d
527: 3d8815b3
436: 3d2a4fad
530: 3d1da33b
439: 3d809172
533: 3d8751ed
442: 3d83a0a5
536: 3dd743a2
445: 3d8fe6b8
539: 3da206ca
448: 3dc95a75
449: 3dc1994b
542: 3d801206
452: 3d42369f
545: 3d7e0b19
output_data_1: 3daec721
548: 3d4513e5
458: 3d3980f7
551: 3d9ce072
461: 3d86c082
554: 3db2a311
464: 3d5c9156
557: 3dc1d65b
467: 3dc1d65b
468: 3d95135e
560: 3d68b647
471: 3d18cf8e
563: 3d2f0bbf
474: 3d7b5a24
566: 3d95be5f
477: 3d799aee
569: 3da45679
480: 3d549446
572: 3dde14b1
483: 3ded2700
484: 3dd341e3
575: 3d70fe2a
487: 3d239cab
578: 3d76aaf4
output_data_2: 3dad6f4b
